<PAD>
<UNK>
<BOS>
<EOS>
▁
m
e
r
h
a
b
M
!
B
u
g
n
s
i
z
l
y
d
c
o
?
S
k
.
I
,
t
G
U
R
N
H
p
v
T
E
D
K
f
P
J
L
A
V
O
j
C
w
F
;
+
W
#
x
:
�
�
2
5
Y
'
4
1
0
6
3
9
q
Q
(
)
/
8
-
&
in
ir
er
an
is
la
▁s
en
im
▁b
il
ek
▁y
▁v
▁o
ma
▁a
li
▁k
▁t
▁n
▁ya
ist
de
▁ve
et
yi
da
▁S
em
ler
ce
ur
ik
ar
ed
in.
▁m
▁bir
on
or
un
▁yap
lar
as
ir.
iz
▁g
ay
me
▁T
el
lama
▁an
▁d
im.
▁se
▁h
▁c
istem
sa
▁z
dan
if
leri
▁in
▁et
▁p
▁tek
it
▁mo
at
bil
dak
ers
▁sif
es
irdan
urk
▁sev
▁ned
al
▁sifirdan
▁anlama
▁odak
▁Turk
eka
▁zeka
▁yapay
▁insa
nik
▁Turkce
meyi
▁odakli
▁as
istan
▁teknik
ul
▁Sen
▁asistan
▁nedir
istemleri
▁anlamayi
▁etmeyi
▁severs
▁seversin.
▁i
lan
▁Sistemleri
isin.
▁asistanisin.
ini
ro
del
dir.
iy
uc
dim
uy
um
uz
▁ver
▁model
▁de
▁ne
le
asil
ac
▁B
▁nasil
gr
uk
ak
▁ed
▁cal
ab
bilir
sin
▁ic
▁A
ig
man
ok
▁on
▁O
ag
▁icin
▁da
idir.
lik
▁calis
lay
▁il
▁ol
ont
ci
▁e
va
▁M
▁pro
ullan
▁ar
▁eder
▁f
us
ip
▁K
gren
ha
▁kullan
▁uy
▁adim
▁I
mek
lu
▁yaz
▁C
▁ogren
▁yar
gu
▁H
▁bas
est
ine
ut
git
▁daha
▁ka
end
gun
lem
las
▁son
ra
▁G
irim.
▁ko
ucuk
iyor
im,
iz.
▁sistem
▁deg
te
▁is
larin
▁E
ca
▁ile
▁gel
ya
▁yardim
▁R
▁sag
os
az
bilir.
mas
istir
▁kont
isi
abilir
▁ola
gi
gitim
lari
▁al
▁hiz
▁ur
▁veri
oy
▁kucuk
oken
ede
fer
▁net
▁ay
▁ce
▁D
ti
▁On
▁kontro
▁bu
▁Once
ec
▁par
▁gor
▁en
ati
▁bil
▁uygu
▁uret
▁test
den
pt
▁token
▁tar
inda
liy
▁ederim.
▁iyi
lerin
▁sor
ol
ant
▁uz
iler
emel
re
for
▁kod
▁kontrol
▁do
▁bag
ence
aba
▁ag
lam
sin?
siniz.
tir
vap
▁P
▁kon
isa
▁gelistir
i,
emli
ur.
dig
lara
▁veya
asy
asyon
▁cevap
▁or
atman
ing
ference
▁onemli
um.
▁ta
▁sonra
am
▁L
ata
oz
▁once
▁yapar
ey
zel
ot
erh
ugun
erhaba
▁yardimci
dir
ava
▁parca
▁proj
▁katman
▁za
▁zaman
▁N
▁hizli
▁yer
eni
++
▁ama
▁egitim
unuc
▁l
igini
▁temel
int
▁bel
erek
izer
ler.
▁Y
▁dus
ib
ize
mak
▁Iyi
▁degis
▁kullanil
▁gun
▁dogr
edef
▁met
▁sa
cr
bet
iniz
▁ist
e,
mayi
lat
▁kac
▁calisan
▁inference
erin
▁proje
▁gore
▁uygulama
layan
inin
forman
erforman
▁duz
irlik
▁dogru
▁olma
om
▁Mo
▁C++
ece
zellik
ack
▁Ar
ni
kur
▁sunuc
izi
nek
esek
esekkur
▁guc
in,
▁yazil
larla
▁kisa
▁hata
act
▁hedef
imi
len
▁kay
erformans
▁ma
deli
▁dur
iye
enli
klas
ran
▁kar
▁kada
▁kadar
▁olc
▁cok
mam
▁F
zellikle
up
mat
▁mod
▁ek
ptim
▁2
ken
▁1
▁yaklas
ation
▁In
gor
gorit
kat
oyle
unu
▁Merhaba
▁yapt
ikkat
▁U
lek
▁tekr
▁olabilir
oru
sun
isim
▁nasilsin
▁Gun
in?
▁ogrenme
res
▁den
▁tekrar
▁ac
abi
▁modeli
ulu
esa
ye
▁oner
crip
▁dil
cript
arn
▁ogrenmek
dur.
mes
▁sur
min
▁gib
▁gibi
▁ornek
ark
aj
▁ise
▁hem
ackend
iyorum
▁hava
oc
▁algorit
▁agirlik
▁dikkat
rit
▁bul
▁olabilirim
▁tesekkur
ilir
▁gec
▁olabilirim?
▁kur
▁tara
din
▁faz
▁fazla
lere
▁coz
▁han
abilirsiniz.
▁modelin
▁yeni
▁parcalara
▁Ben
oh
ohbet
▁yan
▁konu
▁Son
vam
▁anlat
▁optim
▁calisir
▁ayni
▁egit
▁etk
▁Is
cel
larini
uv
ebilir
rak
▁olabilir.
▁uygun
▁sunucu
▁Model
lar.
▁saglayan
▁neden
▁metin
abilir.
▁yazilim
▁Ari
▁Aria
ter
arning
tu
ic
inde
▁calisma
tar
og
▁belir
▁fark
ele
▁tokenizer
▁tut
▁tutar
rat
▁es
▁guv
▁performans
ka
▁eder.
▁ter
▁yerine
▁terci
▁backend
▁taraf
▁Ozellikle
▁Boyle
▁Boylece
▁ben
▁tercih
endi
ten
ada
eceg
▁re
▁duzenli
▁Bugun
▁bek
liyor
sun?
▁Iyiy
▁Iyiyim,
▁Egitim
▁ak
▁her
masini
▁le
ach
▁st
PI
rint
▁kal
▁sohbet
uyuk
▁plan
▁acik
▁ede
▁Tabi
▁Tabii,
▁hangi
digi
▁basit
▁mesa
▁devam
aban
▁API
olu
▁em
ativ
▁Bir
▁old
▁kullanilan
▁Re
estir
oyut
▁learning
ler,
alt
▁LL
▁LLM
masi
▁ch
▁J
et,
bir
▁aray
▁V
izasyon
▁sak
▁gerek
lemek
▁kali
unun
▁ci
▁tah
una
▁tamam
▁w
▁guclu
▁artir
matik
▁var
inir
isini
▁yarar
ild
lerle
▁adimlarla
di
luk
ver
eden
lidir.
▁bak
▁build
op
▁aras
▁yaklasim
▁mim
▁mimar
ch
▁algoritma
eri
oss
po
point
▁tas
▁tarafinda
▁yol
uyor
▁tarz
elam
▁mut
iyon
▁Selam
▁sek
▁Merhaba!
▁size
▁onemli.
ika
larinizi
orularinizi
▁Sorularinizi
liyorum.
▁ederim,
▁Sonra
▁birbir
▁demek
vant
aydin
▁10
▁tahmin
▁Kucuk
▁saat
▁say
gil
eniz
▁pay
▁baglan
lerim.
ali
▁prot
▁yanit
lamak
▁yapabilir
▁edebilir
ana
▁Ist
erseniz
umu
ileri
▁sekil
▁sekilde
▁anlay
▁az
▁progr
▁arayuz
▁yon
▁iy
▁ilet
▁iletisim
▁program
▁Kisa
▁paylas
▁sorun
masidir.
▁Kendi
uzu
▁ayir
▁don
blem
▁mobil
form
sform
liyim
istigini
▁calistigini
ina
▁gelistirme
▁Bu
lis
▁React
ratik
▁ik
TP
iyle
itaban
▁mesaj
▁gir
vantaj
blemi
▁guven
▁biles
ner
▁krit
mesidir.
ST
▁boyut
ebil
ebilir.
▁mu
▁modeller
▁olmaz
▁uzun
▁benim
▁alan
leme
▁Ta
▁HT
▁sir
▁saglar.
der
erel
ram
vram
kpoint
▁top
'n
▁onerir
ime
▁Pro
▁HTTP
▁bilesen
▁gen
azir
▁kavram
▁pratik
lil
▁Ol
ade
'nin
▁olcek
eki
▁bellek
▁for
▁kayn
▁kaynak
▁problemi
larim.
eckpoint
▁dusuk
arak
andir
mpt
sformer
ge
▁Yerel
digim
▁mant
▁kullanim
ransformer
▁tasar
▁nasil?
lar,
ap
▁yaparim.
ersin?
▁Tek
▁Siz
abl
ica
▁Gerek
▁cont
▁Selam!
▁if
▁nasilsiniz
▁nasilsiniz?
▁uzak
▁yapan
ht
▁emis
urada
Air
uraday
▁ok
fit
uradayim.
▁diler
▁Gunaydin
yt
ern
si
lasilir
▁sistemidir.
▁artirir.
htiy
uzel
ake
lend
▁iler
sam
▁Size
▁degisik
▁RE
▁Rica
▁CM
layi
▁Gor
▁Gorus
▁duy
▁uygulay
tiv
abil
▁yerel
iyim.
▁degisiklik
▁bana
u,
▁konuy
▁degil
per
▁mis
▁El
▁Elbet
▁Elbette
▁Elbette,
▁cev
yth
ython
erv
▁bugun
ici
▁Rele
▁JS
meye
▁sik
or,
▁degisikliklerin
larsin?
▁gelir.
abit
inden
▁sifre
▁gon
▁gonder
▁script
uant
▁olus
▁azalt
larak
▁olarak
▁Temel
▁sonrak
▁kolay
gin
ative
inirim.
masik
ON
erce
▁buyuk
▁veritaban
ilerin
▁maliy
aniz
▁ekip
▁onerirsin
▁bilm
miyor
▁edel
▁REST
daki
▁yonet
▁guncel
▁sec
▁bes
▁har
▁oldugun
▁por
▁sinir
led
lendir
▁Inference
▁An
▁mik
▁we
htiyac
▁konus
ku
▁ort
▁Tamam
▁Tamam,
ked
▁sp
▁sayisi
h,
▁hedefi
tiAir
▁parc
▁yarar?
▁sey
larinda
▁De
layin,
uph
utuph
